#ifndef TF_MODEL_H_
#define TF_MODEL_H_

unsigned char model_tflite[] = {
  0x1c, 0x00, 0x00, 0x00, 0x54, 0x46, 0x4c, 0x33, 0x00, 0x00, 0x12, 0x00,
  0x1c, 0x00, 0x04, 0x00, 0x08, 0x00, 0x0c, 0x00, 0x10, 0x00, 0x14, 0x00,
  0x00, 0x00, 0x18, 0x00, 0x12, 0x00, 0x00, 0x00, 0x03, 0x00, 0x00, 0x00,
  0x68, 0x08, 0x00, 0x00, 0x10, 0x00, 0x00, 0x00, 0x1c, 0x00, 0x00, 0x00,
  0x2c, 0x00, 0x00, 0x00, 0x0c, 0x00, 0x00, 0x00, 0x01, 0x00, 0x00, 0x00,
  0xe4, 0x00, 0x00, 0x00, 0x01, 0x00, 0x00, 0x00, 0xac, 0x00, 0x00, 0x00,
  0x0f, 0x00, 0x00, 0x00, 0x54, 0x4f, 0x43, 0x4f, 0x20, 0x43, 0x6f, 0x6e,
  0x76, 0x65, 0x72, 0x74, 0x65, 0x64, 0x2e, 0x00, 0x0d, 0x00, 0x00, 0x00,
  0x80, 0x00, 0x00, 0x00, 0x78, 0x00, 0x00, 0x00, 0x6c, 0x00, 0x00, 0x00,
  0x64, 0x00, 0x00, 0x00, 0x5c, 0x00, 0x00, 0x00, 0x54, 0x00, 0x00, 0x00,
  0x4c, 0x00, 0x00, 0x00, 0x40, 0x00, 0x00, 0x00, 0x34, 0x00, 0x00, 0x00,
  0x28, 0x00, 0x00, 0x00, 0x1c, 0x00, 0x00, 0x00, 0x10, 0x00, 0x00, 0x00,
  0x04, 0x00, 0x00, 0x00, 0xde, 0xf8, 0xff, 0xff, 0x4c, 0x00, 0x00, 0x00,
  0xe6, 0xf8, 0xff, 0xff, 0x18, 0x01, 0x00, 0x00, 0xee, 0xf8, 0xff, 0xff,
  0x7c, 0x01, 0x00, 0x00, 0xf6, 0xf8, 0xff, 0xff, 0x1c, 0x02, 0x00, 0x00,
  0xfe, 0xf8, 0xff, 0xff, 0x7c, 0x02, 0x00, 0x00, 0x06, 0xf9, 0xff, 0xff,
  0xfc, 0x02, 0x00, 0x00, 0xcc, 0xf8, 0xff, 0xff, 0xd0, 0xf8, 0xff, 0xff,
  0xd4, 0xf8, 0xff, 0xff, 0xd8, 0xf8, 0xff, 0xff, 0x1e, 0xf9, 0xff, 0xff,
  0xdc, 0x04, 0x00, 0x00, 0xe4, 0xf8, 0xff, 0xff, 0xe8, 0xf8, 0xff, 0xff,
  0x05, 0x00, 0x00, 0x00, 0x31, 0x2e, 0x35, 0x2e, 0x30, 0x00, 0x00, 0x00,
  0xb8, 0xf9, 0xff, 0xff, 0x08, 0x00, 0x00, 0x00, 0x0c, 0x00, 0x00, 0x00,
  0x13, 0x00, 0x00, 0x00, 0x6d, 0x69, 0x6e, 0x5f, 0x72, 0x75, 0x6e, 0x74,
  0x69, 0x6d, 0x65, 0x5f, 0x76, 0x65, 0x72, 0x73, 0x69, 0x6f, 0x6e, 0x00,
  0x0c, 0x00, 0x14, 0x00, 0x04, 0x00, 0x08, 0x00, 0x0c, 0x00, 0x10, 0x00,
  0x0c, 0x00, 0x00, 0x00, 0x20, 0x00, 0x00, 0x00, 0x14, 0x00, 0x00, 0x00,
  0x08, 0x00, 0x00, 0x00, 0x2c, 0x06, 0x00, 0x00, 0x01, 0x00, 0x00, 0x00,
  0x00, 0x00, 0x00, 0x00, 0x01, 0x00, 0x00, 0x00, 0x01, 0x00, 0x00, 0x00,
  0x0b, 0x00, 0x00, 0x00, 0x18, 0x03, 0x00, 0x00, 0xbc, 0x05, 0x00, 0x00,
  0x10, 0x02, 0x00, 0x00, 0x9c, 0x01, 0x00, 0x00, 0xc0, 0x03, 0x00, 0x00,
  0xfc, 0x03, 0x00, 0x00, 0x28, 0x01, 0x00, 0x00, 0x74, 0x03, 0x00, 0x00,
  0x2c, 0x03, 0x00, 0x00, 0x5c, 0x00, 0x00, 0x00, 0x04, 0x00, 0x00, 0x00,
  0x7a, 0xfa, 0xff, 0xff, 0x10, 0x00, 0x00, 0x00, 0x0b, 0x00, 0x00, 0x00,
  0x10, 0x00, 0x00, 0x00, 0x30, 0x00, 0x00, 0x00, 0x01, 0x00, 0x00, 0x00,
  0x03, 0x00, 0x00, 0x00, 0x1e, 0x00, 0x00, 0x00, 0x73, 0x65, 0x71, 0x75,
  0x65, 0x6e, 0x74, 0x69, 0x61, 0x6c, 0x2f, 0x64, 0x65, 0x6e, 0x73, 0x65,
  0x5f, 0x32, 0x2f, 0x4d, 0x61, 0x74, 0x4d, 0x75, 0x6c, 0x5f, 0x62, 0x69,
  0x61, 0x73, 0x00, 0x00, 0xbc, 0xf9, 0xff, 0xff, 0x0c, 0x00, 0x00, 0x00,
  0xa0, 0x45, 0x10, 0x3e, 0xbf, 0x87, 0x17, 0xbd, 0xba, 0xdc, 0xe2, 0xbd,
  0xce, 0xfa, 0xff, 0xff, 0x10, 0x00, 0x00, 0x00, 0x0a, 0x00, 0x00, 0x00,
  0x14, 0x00, 0x00, 0x00, 0x48, 0x00, 0x00, 0x00, 0x02, 0x00, 0x00, 0x00,
  0x03, 0x00, 0x00, 0x00, 0x08, 0x00, 0x00, 0x00, 0x32, 0x00, 0x00, 0x00,
  0x73, 0x65, 0x71, 0x75, 0x65, 0x6e, 0x74, 0x69, 0x61, 0x6c, 0x2f, 0x64,
  0x65, 0x6e, 0x73, 0x65, 0x5f, 0x32, 0x2f, 0x4d, 0x61, 0x74, 0x4d, 0x75,
  0x6c, 0x2f, 0x52, 0x65, 0x61, 0x64, 0x56, 0x61, 0x72, 0x69, 0x61, 0x62,
  0x6c, 0x65, 0x4f, 0x70, 0x2f, 0x74, 0x72, 0x61, 0x6e, 0x73, 0x70, 0x6f,
  0x73, 0x65, 0x00, 0x00, 0x28, 0xfa, 0xff, 0xff, 0x60, 0x00, 0x00, 0x00,
  0x42, 0xbb, 0x2f, 0xbf, 0x24, 0xed, 0x13, 0x3e, 0x0d, 0x19, 0xb4, 0xbd,
  0x33, 0xa7, 0x0a, 0x3f, 0x00, 0x32, 0x37, 0x3e, 0x38, 0x23, 0x3b, 0xbf,
  0xff, 0xc1, 0x7e, 0x3d, 0x09, 0x72, 0x31, 0x3e, 0x0b, 0xb8, 0x0d, 0xbf,
  0xc3, 0xb5, 0x04, 0x3f, 0x63, 0x42, 0xaf, 0xbe, 0x02, 0xbc, 0x23, 0x3f,
  0x9c, 0x24, 0x37, 0xbe, 0x9e, 0xe6, 0x0d, 0x3f, 0xfe, 0x2f, 0x1e, 0xbc,
  0x8a, 0x53, 0xa8, 0xbc, 0xf4, 0x2f, 0xae, 0xbe, 0xb4, 0x77, 0xdd, 0xbe,
  0x04, 0xc2, 0x5b, 0xbf, 0x9f, 0xcd, 0x8f, 0x3e, 0x65, 0x28, 0x0a, 0x3f,
  0xc9, 0x20, 0xd7, 0x3e, 0x1c, 0x8c, 0x2f, 0xbf, 0xb9, 0xe7, 0x51, 0x3e,
  0x8e, 0xfb, 0xff, 0xff, 0x10, 0x00, 0x00, 0x00, 0x09, 0x00, 0x00, 0x00,
  0x10, 0x00, 0x00, 0x00, 0x30, 0x00, 0x00, 0x00, 0x01, 0x00, 0x00, 0x00,
  0x08, 0x00, 0x00, 0x00, 0x1e, 0x00, 0x00, 0x00, 0x73, 0x65, 0x71, 0x75,
  0x65, 0x6e, 0x74, 0x69, 0x61, 0x6c, 0x2f, 0x64, 0x65, 0x6e, 0x73, 0x65,
  0x5f, 0x31, 0x2f, 0x4d, 0x61, 0x74, 0x4d, 0x75, 0x6c, 0x5f, 0x62, 0x69,
  0x61, 0x73, 0x00, 0x00, 0xd0, 0xfa, 0xff, 0xff, 0x20, 0x00, 0x00, 0x00,
  0x2d, 0x55, 0xfe, 0xbd, 0x00, 0x00, 0x00, 0x00, 0xbc, 0x41, 0x32, 0x3e,
  0x4d, 0x48, 0x3e, 0xbd, 0x00, 0x00, 0x00, 0x00, 0x58, 0x1c, 0xe6, 0xbc,
  0xa7, 0x1f, 0x0c, 0xbd, 0x04, 0x24, 0x18, 0xbc, 0xf6, 0xfb, 0xff, 0xff,
  0x10, 0x00, 0x00, 0x00, 0x08, 0x00, 0x00, 0x00, 0x10, 0x00, 0x00, 0x00,
  0x30, 0x00, 0x00, 0x00, 0x01, 0x00, 0x00, 0x00, 0x0a, 0x00, 0x00, 0x00,
  0x1c, 0x00, 0x00, 0x00, 0x73, 0x65, 0x71, 0x75, 0x65, 0x6e, 0x74, 0x69,
  0x61, 0x6c, 0x2f, 0x64, 0x65, 0x6e, 0x73, 0x65, 0x2f, 0x4d, 0x61, 0x74,
  0x4d, 0x75, 0x6c, 0x5f, 0x62, 0x69, 0x61, 0x73, 0x00, 0x00, 0x00, 0x00,
  0x38, 0xfb, 0xff, 0xff, 0x28, 0x00, 0x00, 0x00, 0x68, 0xfe, 0x42, 0xbc,
  0xcf, 0x1b, 0xd1, 0xbd, 0x1f, 0xed, 0xe8, 0xbc, 0xa1, 0x3b, 0x9a, 0x3d,
  0xcc, 0x95, 0x45, 0x3e, 0x9c, 0x53, 0xbe, 0xbc, 0x12, 0xa5, 0x2a, 0xbd,
  0x58, 0x95, 0x09, 0xbc, 0xa0, 0x7b, 0xa2, 0x3e, 0xca, 0x13, 0x05, 0xbc,
  0x66, 0xfc, 0xff, 0xff, 0x10, 0x00, 0x00, 0x00, 0x07, 0x00, 0x00, 0x00,
  0x14, 0x00, 0x00, 0x00, 0x48, 0x00, 0x00, 0x00, 0x02, 0x00, 0x00, 0x00,
  0x0a, 0x00, 0x00, 0x00, 0x04, 0x00, 0x00, 0x00, 0x30, 0x00, 0x00, 0x00,
  0x73, 0x65, 0x71, 0x75, 0x65, 0x6e, 0x74, 0x69, 0x61, 0x6c, 0x2f, 0x64,
  0x65, 0x6e, 0x73, 0x65, 0x2f, 0x4d, 0x61, 0x74, 0x4d, 0x75, 0x6c, 0x2f,
  0x52, 0x65, 0x61, 0x64, 0x56, 0x61, 0x72, 0x69, 0x61, 0x62, 0x6c, 0x65,
  0x4f, 0x70, 0x2f, 0x74, 0x72, 0x61, 0x6e, 0x73, 0x70, 0x6f, 0x73, 0x65,
  0x00, 0x00, 0x00, 0x00, 0xc0, 0xfb, 0xff, 0xff, 0xa0, 0x00, 0x00, 0x00,
  0x98, 0x27, 0x8c, 0x3e, 0xf1, 0x03, 0x05, 0x3e, 0xef, 0x18, 0x5b, 0x3d,
  0x6f, 0x19, 0x05, 0x3e, 0x41, 0xb2, 0x6d, 0x3f, 0x08, 0x28, 0x55, 0xbd,
  0x16, 0x55, 0x6f, 0x3f, 0x41, 0xda, 0xfa, 0x3e, 0x0e, 0x91, 0x09, 0xbf,
  0xfd, 0x98, 0x14, 0xbf, 0x31, 0x01, 0x9e, 0x3f, 0x89, 0xaa, 0x22, 0x3d,
  0xd7, 0x0a, 0x16, 0x3f, 0xb7, 0x48, 0x28, 0x3f, 0xf6, 0x3b, 0xcf, 0xbe,
  0xe3, 0xee, 0x13, 0x3c, 0x14, 0x8c, 0x1b, 0x3f, 0x5f, 0x37, 0xca, 0x3f,
  0xfa, 0xfc, 0x47, 0xbf, 0x92, 0x91, 0xe7, 0xbe, 0x6e, 0xd1, 0x3c, 0xbf,
  0x7f, 0x06, 0x28, 0x3f, 0xe9, 0x0c, 0x72, 0x3e, 0x6d, 0xe4, 0xd8, 0x3e,
  0xf8, 0x75, 0x0a, 0x3f, 0xa8, 0x81, 0xc0, 0x3d, 0x8b, 0x26, 0x03, 0x3e,
  0x45, 0xab, 0x4e, 0xbf, 0x36, 0x86, 0x82, 0x3f, 0x82, 0x4e, 0x5a, 0xbf,
  0xcf, 0x03, 0x84, 0x3f, 0xd9, 0xc0, 0x5d, 0xbf, 0x8b, 0xd2, 0xf7, 0x3e,
  0xe3, 0xa3, 0x23, 0x3f, 0x4e, 0xa6, 0x06, 0xbf, 0x44, 0xee, 0x7b, 0xbf,
  0x23, 0xd3, 0xba, 0x3e, 0x58, 0x3c, 0x89, 0x3d, 0x78, 0xbf, 0x93, 0xbe,
  0x93, 0x03, 0xca, 0x3e, 0x66, 0xfd, 0xff, 0xff, 0x10, 0x00, 0x00, 0x00,
  0x06, 0x00, 0x00, 0x00, 0x14, 0x00, 0x00, 0x00, 0x20, 0x00, 0x00, 0x00,
  0x02, 0x00, 0x00, 0x00, 0x01, 0x00, 0x00, 0x00, 0x03, 0x00, 0x00, 0x00,
  0x08, 0x00, 0x00, 0x00, 0x49, 0x64, 0x65, 0x6e, 0x74, 0x69, 0x74, 0x79,
  0x00, 0x00, 0x00, 0x00, 0x98, 0xfc, 0xff, 0xff, 0x9a, 0xfd, 0xff, 0xff,
  0x10, 0x00, 0x00, 0x00, 0x05, 0x00, 0x00, 0x00, 0x14, 0x00, 0x00, 0x00,
  0x30, 0x00, 0x00, 0x00, 0x02, 0x00, 0x00, 0x00, 0x01, 0x00, 0x00, 0x00,
  0x03, 0x00, 0x00, 0x00, 0x1a, 0x00, 0x00, 0x00, 0x73, 0x65, 0x71, 0x75,
  0x65, 0x6e, 0x74, 0x69, 0x61, 0x6c, 0x2f, 0x64, 0x65, 0x6e, 0x73, 0x65,
  0x5f, 0x32, 0x2f, 0x42, 0x69, 0x61, 0x73, 0x41, 0x64, 0x64, 0x00, 0x00,
  0xdc, 0xfc, 0xff, 0xff, 0xde, 0xfd, 0xff, 0xff, 0x10, 0x00, 0x00, 0x00,
  0x04, 0x00, 0x00, 0x00, 0x14, 0x00, 0x00, 0x00, 0x2c, 0x00, 0x00, 0x00,
  0x02, 0x00, 0x00, 0x00, 0x01, 0x00, 0x00, 0x00, 0x08, 0x00, 0x00, 0x00,
  0x17, 0x00, 0x00, 0x00, 0x73, 0x65, 0x71, 0x75, 0x65, 0x6e, 0x74, 0x69,
  0x61, 0x6c, 0x2f, 0x64, 0x65, 0x6e, 0x73, 0x65, 0x5f, 0x31, 0x2f, 0x52,
  0x65, 0x6c, 0x75, 0x00, 0x1c, 0xfd, 0xff, 0xff, 0x1e, 0xfe, 0xff, 0xff,
  0x10, 0x00, 0x00, 0x00, 0x03, 0x00, 0x00, 0x00, 0x14, 0x00, 0x00, 0x00,
  0x2c, 0x00, 0x00, 0x00, 0x02, 0x00, 0x00, 0x00, 0x01, 0x00, 0x00, 0x00,
  0x0a, 0x00, 0x00, 0x00, 0x15, 0x00, 0x00, 0x00, 0x73, 0x65, 0x71, 0x75,
  0x65, 0x6e, 0x74, 0x69, 0x61, 0x6c, 0x2f, 0x64, 0x65, 0x6e, 0x73, 0x65,
  0x2f, 0x52, 0x65, 0x6c, 0x75, 0x00, 0x00, 0x00, 0x5c, 0xfd, 0xff, 0xff,
  0x5e, 0xfe, 0xff, 0xff, 0x10, 0x00, 0x00, 0x00, 0x02, 0x00, 0x00, 0x00,
  0x14, 0x00, 0x00, 0x00, 0x48, 0x00, 0x00, 0x00, 0x02, 0x00, 0x00, 0x00,
  0x08, 0x00, 0x00, 0x00, 0x0a, 0x00, 0x00, 0x00, 0x32, 0x00, 0x00, 0x00,
  0x73, 0x65, 0x71, 0x75, 0x65, 0x6e, 0x74, 0x69, 0x61, 0x6c, 0x2f, 0x64,
  0x65, 0x6e, 0x73, 0x65, 0x5f, 0x31, 0x2f, 0x4d, 0x61, 0x74, 0x4d, 0x75,
  0x6c, 0x2f, 0x52, 0x65, 0x61, 0x64, 0x56, 0x61, 0x72, 0x69, 0x61, 0x62,
  0x6c, 0x65, 0x4f, 0x70, 0x2f, 0x74, 0x72, 0x61, 0x6e, 0x73, 0x70, 0x6f,
  0x73, 0x65, 0x00, 0x00, 0xb8, 0xfd, 0xff, 0xff, 0x40, 0x01, 0x00, 0x00,
  0x25, 0x86, 0x99, 0x3e, 0xdd, 0xba, 0x3c, 0x3f, 0xc9, 0xd3, 0xb6, 0x3f,
  0xbe, 0xf3, 0x4e, 0xbe, 0x52, 0x05, 0x39, 0xbf, 0xf2, 0xa9, 0x87, 0x3d,
  0xf7, 0x6d, 0xb0, 0x3e, 0x86, 0xa6, 0x40, 0x3e, 0xdc, 0x64, 0x46, 0xbe,
  0xc0, 0xa0, 0xb6, 0xbe, 0x0c, 0xaf, 0x18, 0xbf, 0x7d, 0xbc, 0x4c, 0xbe,
  0xa5, 0x14, 0x29, 0x3f, 0x92, 0x2f, 0xc1, 0xbe, 0x0b, 0x26, 0x63, 0x3e,
  0x6d, 0x5d, 0x1e, 0xbf, 0x11, 0xd7, 0x49, 0x3e, 0xd6, 0x69, 0x1a, 0xbb,
  0x57, 0x7d, 0x40, 0xbd, 0xce, 0xf7, 0x30, 0xbf, 0x74, 0xc6, 0x18, 0x3f,
  0x63, 0x44, 0xe4, 0xbe, 0xde, 0x90, 0x94, 0xbc, 0xd1, 0x02, 0xb6, 0x3e,
  0x67, 0x16, 0x43, 0x3f, 0x83, 0xf0, 0xfe, 0x3d, 0x7e, 0x8c, 0x8d, 0xbe,
  0x04, 0x2c, 0xd0, 0x3e, 0x73, 0x0c, 0x80, 0x3f, 0x63, 0xc9, 0xa6, 0x3d,
  0xb8, 0x8a, 0x3b, 0xbe, 0x77, 0x6f, 0x08, 0xbf, 0x88, 0xad, 0xa1, 0xbe,
  0x41, 0xef, 0xdb, 0x3e, 0x16, 0xdd, 0xf4, 0x3e, 0xad, 0x1f, 0xfe, 0xbe,
  0x91, 0x85, 0x8c, 0x3e, 0xc7, 0xc0, 0x04, 0xbe, 0x3f, 0x53, 0x5a, 0xbf,
  0x19, 0x53, 0x78, 0x3e, 0x5f, 0x0e, 0xdd, 0xbe, 0xa0, 0x04, 0x07, 0xbf,
  0x6e, 0x3c, 0x98, 0x3e, 0xe8, 0x86, 0x39, 0x3f, 0x12, 0x12, 0xba, 0xbe,
  0xaa, 0x0a, 0xcd, 0xbc, 0x30, 0x86, 0x3c, 0x3f, 0x8c, 0x2b, 0x73, 0x3d,
  0x40, 0x28, 0xc0, 0xbe, 0x5e, 0x78, 0x07, 0x3e, 0xd0, 0x14, 0x4e, 0x3f,
  0x9f, 0xbf, 0x20, 0x3d, 0x1c, 0xab, 0x2e, 0x3d, 0xd3, 0xc9, 0x98, 0xbe,
  0x9f, 0xf7, 0x4f, 0xbe, 0xab, 0x99, 0x1e, 0xbf, 0x17, 0xf5, 0x00, 0xbf,
  0x04, 0xcb, 0x22, 0x3f, 0x05, 0x0e, 0xf4, 0xbd, 0xc6, 0x7e, 0x14, 0x3f,
  0xf1, 0x1e, 0x70, 0x3f, 0xd5, 0x5c, 0xa9, 0xbe, 0x8d, 0xa4, 0x59, 0x3e,
  0x35, 0xa3, 0xe3, 0xbd, 0x84, 0x26, 0x0a, 0xbe, 0xb4, 0xdc, 0x4a, 0x3f,
  0x82, 0xa9, 0xc7, 0x3e, 0xc4, 0x41, 0x12, 0x3e, 0x95, 0x21, 0x0e, 0xbf,
  0xdc, 0x2a, 0xd5, 0xbe, 0xc2, 0xd6, 0xbc, 0x3c, 0x4e, 0xcf, 0x8e, 0x3e,
  0x72, 0x63, 0x9b, 0x3e, 0x8d, 0x10, 0x99, 0x3e, 0x26, 0x3f, 0x6f, 0x3d,
  0x1a, 0xe2, 0x00, 0xbe, 0xfe, 0x43, 0x5f, 0xbe, 0xba, 0x28, 0xd6, 0x3e,
  0x71, 0xf8, 0xe3, 0xbd, 0x8d, 0x3b, 0x10, 0xbf, 0x00, 0x00, 0x0e, 0x00,
  0x14, 0x00, 0x04, 0x00, 0x00, 0x00, 0x08, 0x00, 0x0c, 0x00, 0x10, 0x00,
  0x0e, 0x00, 0x00, 0x00, 0x10, 0x00, 0x00, 0x00, 0x01, 0x00, 0x00, 0x00,
  0x14, 0x00, 0x00, 0x00, 0x28, 0x00, 0x00, 0x00, 0x02, 0x00, 0x00, 0x00,
  0x01, 0x00, 0x00, 0x00, 0x04, 0x00, 0x00, 0x00, 0x0b, 0x00, 0x00, 0x00,
  0x64, 0x65, 0x6e, 0x73, 0x65, 0x5f, 0x69, 0x6e, 0x70, 0x75, 0x74, 0x00,
  0x08, 0x00, 0x0c, 0x00, 0x04, 0x00, 0x08, 0x00, 0x08, 0x00, 0x00, 0x00,
  0x10, 0x00, 0x00, 0x00, 0x04, 0x00, 0x00, 0x00, 0x01, 0x00, 0x00, 0x00,
  0x00, 0x00, 0x7f, 0x43, 0x01, 0x00, 0x00, 0x00, 0x00, 0x00, 0x00, 0x00,
  0x04, 0x00, 0x00, 0x00, 0xf0, 0x00, 0x00, 0x00, 0x9c, 0x00, 0x00, 0x00,
  0x5c, 0x00, 0x00, 0x00, 0x18, 0x00, 0x00, 0x00, 0x14, 0x00, 0x1c, 0x00,
  0x08, 0x00, 0x0c, 0x00, 0x10, 0x00, 0x07, 0x00, 0x14, 0x00, 0x00, 0x00,
  0x00, 0x00, 0x18, 0x00, 0x14, 0x00, 0x00, 0x00, 0x00, 0x00, 0x00, 0x09,
  0x01, 0x00, 0x00, 0x00, 0x10, 0x00, 0x00, 0x00, 0x14, 0x00, 0x00, 0x00,
  0x24, 0x00, 0x00, 0x00, 0x14, 0x00, 0x00, 0x00, 0x01, 0x00, 0x00, 0x00,
  0x08, 0x00, 0x00, 0x00, 0x01, 0x00, 0x00, 0x00, 0x00, 0x00, 0x00, 0x00,
  0x00, 0x00, 0x00, 0x00, 0x00, 0x00, 0x06, 0x00, 0x08, 0x00, 0x04, 0x00,
  0x06, 0x00, 0x00, 0x00, 0x00, 0x00, 0x80, 0x3f, 0x88, 0xff, 0xff, 0xff,
  0x00, 0x00, 0x00, 0x08, 0x10, 0x00, 0x00, 0x00, 0x1c, 0x00, 0x00, 0x00,
  0x28, 0x00, 0x00, 0x00, 0x1c, 0x00, 0x00, 0x00, 0x03, 0x00, 0x00, 0x00,
  0x07, 0x00, 0x00, 0x00, 0x09, 0x00, 0x00, 0x00, 0x0a, 0x00, 0x00, 0x00,
  0x01, 0x00, 0x00, 0x00, 0x08, 0x00, 0x00, 0x00, 0x00, 0x00, 0x00, 0x00,
  0x04, 0x00, 0x04, 0x00, 0x04, 0x00, 0x00, 0x00, 0xc4, 0xff, 0xff, 0xff,
  0x00, 0x00, 0x00, 0x08, 0x10, 0x00, 0x00, 0x00, 0x1c, 0x00, 0x00, 0x00,
  0x24, 0x00, 0x00, 0x00, 0x1c, 0x00, 0x00, 0x00, 0x03, 0x00, 0x00, 0x00,
  0x04, 0x00, 0x00, 0x00, 0x05, 0x00, 0x00, 0x00, 0x06, 0x00, 0x00, 0x00,
  0x01, 0x00, 0x00, 0x00, 0x07, 0x00, 0x00, 0x00, 0x00, 0x00, 0x00, 0x00,
  0x82, 0xff, 0xff, 0xff, 0x00, 0x00, 0x00, 0x01, 0x14, 0x00, 0x18, 0x00,
  0x00, 0x00, 0x08, 0x00, 0x0c, 0x00, 0x07, 0x00, 0x10, 0x00, 0x00, 0x00,
  0x00, 0x00, 0x14, 0x00, 0x14, 0x00, 0x00, 0x00, 0x00, 0x00, 0x00, 0x08,
  0x10, 0x00, 0x00, 0x00, 0x1c, 0x00, 0x00, 0x00, 0x24, 0x00, 0x00, 0x00,
  0x1c, 0x00, 0x00, 0x00, 0x03, 0x00, 0x00, 0x00, 0x01, 0x00, 0x00, 0x00,
  0x02, 0x00, 0x00, 0x00, 0x03, 0x00, 0x00, 0x00, 0x01, 0x00, 0x00, 0x00,
  0x04, 0x00, 0x00, 0x00, 0x00, 0x00, 0x00, 0x00, 0xd2, 0xff, 0xff, 0xff,
  0x00, 0x00, 0x00, 0x01, 0x02, 0x00, 0x00, 0x00, 0x10, 0x00, 0x00, 0x00,
  0x04, 0x00, 0x00, 0x00, 0xe6, 0xff, 0xff, 0xff, 0x00, 0x00, 0x00, 0x19,
  0xfa, 0xff, 0xff, 0xff, 0x00, 0x09, 0x06, 0x00, 0x06, 0x00, 0x05, 0x00,
  0x06, 0x00, 0x00, 0x00, 0x00, 0x09, 0x06, 0x00, 0x08, 0x00, 0x07, 0x00,
  0x06, 0x00, 0x00, 0x00, 0x00, 0x00, 0x00, 0x09
};
unsigned int model_tflite_len = 2240;

#endif